#include "grunet_data.h"

ai_handle ai_grunet_data_weights_get(void)
{

  AI_ALIGNED(4)
  static const ai_u8 s_grunet_weights[ 3144 ] = {
    0x6e, 0x21, 0x3d, 0xbe, 0x6c, 0x5a, 0x52, 0xbf, 0xcc, 0x80,
    0x69, 0xbb, 0x5d, 0xd6, 0xd3, 0x3e, 0xcd, 0x19, 0x8d, 0x3e,
    0x93, 0xd9, 0x15, 0x3f, 0x9d, 0xe6, 0xe9, 0xbe, 0x2d, 0x90,
    0x4c, 0xbe, 0x4c, 0x0a, 0x59, 0xbe, 0x78, 0x9d, 0x61, 0x3f,
    0x0f, 0xf4, 0xf8, 0x3e, 0x5c, 0xe4, 0x3f, 0x3f, 0x76, 0x77,
    0xf1, 0xbe, 0x83, 0xc5, 0xe3, 0xbe, 0x2f, 0x93, 0x8d, 0xbf,
    0x92, 0x54, 0x26, 0xbf, 0xb1, 0x63, 0x9b, 0xbd, 0x6b, 0x88,
    0x2f, 0xbc, 0x32, 0xe6, 0xb9, 0x3e, 0xbf, 0xd4, 0x31, 0xbe,
    0x2b, 0x73, 0xf9, 0x3e, 0xad, 0x1c, 0x26, 0xbe, 0x2c, 0xe3,
    0x46, 0x3f, 0xf1, 0xd5, 0x91, 0x3e, 0x36, 0x71, 0x87, 0xbd,
    0x72, 0x9d, 0xdb, 0x3e, 0x0a, 0xab, 0xbb, 0x3e, 0xb0, 0x2f,
    0xfb, 0x3e, 0xb0, 0x43, 0x8c, 0x3d, 0xda, 0xf5, 0x40, 0xbf,
    0xf4, 0xf9, 0xe0, 0x3e, 0xf9, 0x93, 0xf4, 0x3e, 0x58, 0x8d,
    0x4e, 0xbe, 0x2d, 0xb5, 0xb0, 0x3e, 0x04, 0xd7, 0x83, 0x3d,
    0x5a, 0xc6, 0xaf, 0x3e, 0x1f, 0xc0, 0xd0, 0xbd, 0x9a, 0xff,
    0x7a, 0x3f, 0x29, 0x17, 0xd5, 0x3e, 0x29, 0x77, 0xc6, 0x3e,
    0x50, 0xe1, 0x28, 0x3f, 0xbc, 0x80, 0x72, 0xbf, 0xf8, 0xed,
    0x7f, 0xbe, 0x05, 0x7f, 0xc6, 0x3e, 0xc1, 0x3f, 0x1d, 0x3d,
    0x66, 0xa8, 0xd4, 0xbe, 0xf4, 0xb6, 0xe0, 0xbe, 0xa7, 0xd7,
    0x1d, 0x3f, 0xfd, 0x1c, 0x7c, 0x3e, 0x4f, 0xd4, 0x12, 0xbf,
    0xac, 0xf9, 0xd4, 0xbe, 0x31, 0x42, 0x07, 0x3f, 0xc3, 0x3c,
    0x76, 0x3f, 0xd4, 0xc1, 0x7d, 0xbe, 0x01, 0x50, 0x32, 0xbf,
    0x2b, 0x41, 0xad, 0xbe, 0x07, 0x06, 0xd5, 0x3e, 0x89, 0x4b,
    0xc6, 0x3f, 0x0a, 0x5d, 0xda, 0x3e, 0xc0, 0x99, 0x83, 0x3f,
    0xe9, 0xea, 0x1c, 0xbd, 0xe8, 0x25, 0xca, 0x3d, 0x42, 0x63,
    0x5b, 0x3f, 0x81, 0xc6, 0x12, 0xbe, 0xba, 0xed, 0x99, 0xbe,
    0x0b, 0x90, 0xa6, 0xbf, 0xab, 0x84, 0x13, 0xbf, 0xce, 0x2c,
    0x0b, 0xbf, 0x9a, 0x19, 0x0c, 0xbf, 0x90, 0xf5, 0x7b, 0xbf,
    0x04, 0xcf, 0xa3, 0xbe, 0x01, 0xf7, 0x94, 0x3e, 0x53, 0xb9,
    0xbc, 0x3f, 0xaf, 0xfe, 0xaf, 0x3e, 0x58, 0xfc, 0x93, 0xbf,
    0xdd, 0x1f, 0x13, 0xbf, 0x59, 0xe4, 0x83, 0xbe, 0x61, 0xb3,
    0xb2, 0xbe, 0x65, 0x51, 0x88, 0xbe, 0xf1, 0x62, 0x1c, 0xbf,
    0x1a, 0x14, 0x62, 0xbe, 0x14, 0x05, 0xfa, 0x3e, 0xf7, 0xa5,
    0x0b, 0xbf, 0xea, 0xc3, 0x21, 0x3f, 0x8b, 0xf9, 0xa4, 0xbe,
    0x3a, 0xbf, 0x1e, 0x3e, 0x61, 0x48, 0x8c, 0xbe, 0xef, 0x03,
    0x5d, 0xbd, 0x11, 0x3f, 0xa8, 0x3e, 0xd6, 0x49, 0xc4, 0x3e,
    0x00, 0xa0, 0x89, 0xbd, 0xde, 0xaa, 0x37, 0xbe, 0xbc, 0xfd,
    0x55, 0x3d, 0xaa, 0x66, 0xc6, 0x3d, 0x42, 0x5e, 0x0e, 0xbe,
    0x23, 0x04, 0xcc, 0xbc, 0x76, 0xd2, 0x57, 0xbf, 0x16, 0x50,
    0xa4, 0x3f, 0xe1, 0x51, 0x20, 0xbf, 0xb1, 0xf5, 0x4b, 0xbf,
    0x8c, 0xc4, 0xd6, 0x3d, 0xde, 0xc1, 0x84, 0xbf, 0xeb, 0xcc,
    0xec, 0x3f, 0xc5, 0x98, 0x99, 0x3e, 0xfe, 0x7c, 0xb3, 0x3e,
    0x6e, 0xd1, 0xc6, 0x3b, 0xe1, 0xa9, 0x6f, 0x3e, 0x42, 0x22,
    0x12, 0xbe, 0x3d, 0x08, 0x7b, 0xbf, 0x8d, 0x8b, 0xa5, 0xbf,
    0xd9, 0x4d, 0x0a, 0xbf, 0x03, 0x7a, 0xdb, 0x3e, 0x93, 0x59,
    0x4b, 0xbe, 0x40, 0x70, 0x8a, 0x3e, 0x13, 0x1c, 0x44, 0xbd,
    0xa5, 0x08, 0x27, 0x3d, 0x14, 0xff, 0x1a, 0xba, 0x93, 0xec,
    0xef, 0x3e, 0xd7, 0x66, 0x24, 0x3e, 0xa9, 0x49, 0x8f, 0x3e,
    0x0d, 0x49, 0xe3, 0x3d, 0x5f, 0xf0, 0xe1, 0xbd, 0x47, 0xdc,
    0x93, 0x3e, 0xe8, 0xbe, 0x78, 0x3e, 0xe9, 0x43, 0x9d, 0xbe,
    0x05, 0x05, 0x01, 0xbf, 0x5f, 0x2e, 0x10, 0xbf, 0x8d, 0x9d,
    0x0a, 0x3f, 0x26, 0xe1, 0x74, 0xbf, 0x8f, 0x8c, 0x72, 0xbf,
    0x65, 0x64, 0x03, 0x3e, 0xb1, 0xa5, 0x81, 0x3f, 0x2d, 0x77,
    0xf1, 0x3e, 0xc9, 0x07, 0x74, 0xbd, 0xe9, 0xf3, 0x5b, 0xbe,
    0xa7, 0x03, 0xaa, 0xbe, 0xa1, 0xd0, 0x7a, 0xbf, 0x74, 0xa5,
    0xac, 0x3f, 0x9c, 0xfc, 0x73, 0xbe, 0x1b, 0xfc, 0x81, 0xbf,
    0x36, 0x16, 0x2d, 0x3e, 0x99, 0xe9, 0x8c, 0xbe, 0x2e, 0x24,
    0xed, 0x3f, 0xa6, 0xdb, 0x35, 0xbf, 0xfb, 0xfc, 0xbf, 0xbe,
    0x5a, 0xd7, 0x51, 0xbf, 0x19, 0x07, 0x8c, 0xbe, 0x62, 0xeb,
    0x97, 0xbd, 0x59, 0xaa, 0x34, 0xbf, 0x23, 0x27, 0x01, 0xc0,
    0xd6, 0x4a, 0x30, 0x3f, 0x5e, 0x69, 0x99, 0xbf, 0xb6, 0xd0,
    0x6a, 0x3f, 0x99, 0xc9, 0xc5, 0xbf, 0xd4, 0xc8, 0xcb, 0x3e,
    0x97, 0x14, 0x76, 0xbe, 0x55, 0x4f, 0xa5, 0x3e, 0x19, 0x9e,
    0x20, 0xbf, 0xb6, 0x39, 0xbb, 0xbf, 0xbe, 0x10, 0x8b, 0xbf,
    0x6f, 0xc0, 0xae, 0xbd, 0x18, 0x04, 0x0f, 0x3f, 0x34, 0x25,
    0x83, 0x3e, 0x3d, 0xac, 0x21, 0x3f, 0xee, 0x14, 0xc7, 0x3e,
    0xcb, 0xeb, 0xb9, 0x3e, 0x0f, 0x48, 0x73, 0x3e, 0x8f, 0x05,
    0x8a, 0xbd, 0x5f, 0x36, 0x11, 0x3e, 0xd3, 0xae, 0x96, 0xbe,
    0x21, 0xaa, 0x55, 0x3e, 0xbf, 0x41, 0x6e, 0xbc, 0x7d, 0x18,
    0xbe, 0x3d, 0x0f, 0x3f, 0x08, 0xbf, 0x76, 0xfe, 0x87, 0x3e,
    0x5d, 0x99, 0x95, 0x3e, 0x6b, 0xf4, 0xd0, 0x3e, 0x90, 0x45,
    0x9d, 0xbe, 0x2c, 0x0c, 0x6e, 0xbe, 0x51, 0x90, 0x71, 0xbd,
    0xbd, 0xc6, 0x52, 0x3e, 0x94, 0x24, 0x9a, 0xbe, 0xfc, 0x5a,
    0x3a, 0xbd, 0x8f, 0x8b, 0xcc, 0x3e, 0x5a, 0xa5, 0x09, 0x3e,
    0x1f, 0xc3, 0xfa, 0x3e, 0x3a, 0x94, 0xb7, 0x3e, 0x36, 0x0d,
    0x06, 0x3f, 0xd4, 0xaa, 0x38, 0x3e, 0x36, 0x4b, 0xd7, 0x3d,
    0x6b, 0xd6, 0x9d, 0xbe, 0x53, 0xe7, 0xec, 0xbc, 0x4f, 0x80,
    0xc3, 0xbe, 0x63, 0x59, 0xd0, 0x3d, 0xac, 0xe7, 0xcc, 0x3e,
    0x35, 0xf2, 0x95, 0x3d, 0xcc, 0xe5, 0xbc, 0x3e, 0x6c, 0xac,
    0x03, 0xbf, 0x28, 0x30, 0xa2, 0x3e, 0x8d, 0x44, 0x1d, 0x3e,
    0x0f, 0x04, 0x26, 0x3f, 0x08, 0x14, 0x1f, 0x3e, 0xe7, 0x2c,
    0x6d, 0xbd, 0x86, 0xf6, 0x46, 0x3e, 0x7b, 0x1a, 0x90, 0x3e,
    0x64, 0x35, 0x01, 0xbf, 0xd2, 0x43, 0xcb, 0x3d, 0xa8, 0x53,
    0x80, 0xbd, 0x40, 0xa7, 0x02, 0xbf, 0xe5, 0xd2, 0x9d, 0xbe,
    0xf6, 0x07, 0x2d, 0xbe, 0xaa, 0xd5, 0x2d, 0xbd, 0x92, 0xde,
    0x83, 0x3d, 0x0c, 0x82, 0x4b, 0x3f, 0xd4, 0x5b, 0x80, 0x3e,
    0x7e, 0x67, 0x17, 0x3f, 0x5e, 0x8f, 0xf4, 0x3d, 0xd2, 0xb7,
    0x39, 0x3e, 0x26, 0xac, 0xe5, 0x3e, 0x8a, 0x20, 0x17, 0x3f,
    0x18, 0xa0, 0x51, 0x3f, 0xfd, 0x44, 0xf3, 0xbe, 0x86, 0x62,
    0xe1, 0xbe, 0xec, 0xdd, 0xed, 0xbe, 0x6f, 0xba, 0x3b, 0x3f,
    0x30, 0x24, 0x26, 0xbe, 0x2a, 0x66, 0x89, 0x3e, 0x69, 0xb2,
    0x54, 0x3e, 0xbc, 0xc5, 0x11, 0x3e, 0xdd, 0xe7, 0x15, 0x3e,
    0xbb, 0x87, 0x5c, 0xbe, 0xcc, 0x69, 0x2f, 0x3b, 0x9a, 0xf6,
    0x23, 0xbf, 0x4d, 0xd9, 0xbe, 0x3d, 0x21, 0x3d, 0x85, 0x3e,
    0x2f, 0xfe, 0x23, 0xbd, 0xd8, 0x07, 0x81, 0xbe, 0xf0, 0x61,
    0xae, 0x3d, 0xe7, 0x47, 0x40, 0x3f, 0x65, 0x7b, 0x8e, 0x3f,
    0x0d, 0x28, 0xfa, 0x3e, 0xaa, 0xb4, 0x82, 0xbf, 0xd9, 0xd3,
    0x62, 0x3c, 0x37, 0x8a, 0xe8, 0xbe, 0x4f, 0xda, 0x6a, 0x3f,
    0xb7, 0x6e, 0xf2, 0x3e, 0x0d, 0x18, 0xa6, 0x3e, 0xa7, 0xf8,
    0x6a, 0x3e, 0x97, 0x73, 0xa3, 0xbe, 0x13, 0x42, 0x62, 0x3e,
    0x10, 0x97, 0x95, 0x3e, 0xc7, 0xda, 0xad, 0xbe, 0x12, 0xf7,
    0xda, 0x3e, 0x9d, 0x24, 0x5f, 0x3e, 0xa3, 0xe4, 0xe9, 0x3e,
    0x3c, 0xc6, 0xb6, 0x3e, 0x00, 0xd7, 0xc2, 0xbd, 0x77, 0x0e,
    0xaa, 0xbe, 0xd5, 0xad, 0xdf, 0x3e, 0x50, 0x1c, 0xd7, 0xbd,
    0xda, 0x12, 0x59, 0x3f, 0x33, 0x02, 0xbc, 0x3e, 0xf3, 0x3e,
    0x72, 0xbe, 0xe1, 0x94, 0xd1, 0x3e, 0xd3, 0x7b, 0xbe, 0x3e,
    0xc2, 0x98, 0x56, 0x3e, 0xda, 0x7c, 0x12, 0x3d, 0xc0, 0xd8,
    0x40, 0x3f, 0x39, 0x16, 0x41, 0xbe, 0x3c, 0x88, 0x89, 0xbe,
    0xf9, 0x26, 0xf0, 0xbe, 0x06, 0xe8, 0x0e, 0x3f, 0x6f, 0x70,
    0x8e, 0x3d, 0x8f, 0x60, 0xc9, 0x3e, 0x71, 0x95, 0x09, 0xbf,
    0x8d, 0x7c, 0x07, 0x3f, 0x65, 0x70, 0x82, 0xbf, 0xba, 0x9b,
    0x1a, 0x3e, 0xed, 0x34, 0x71, 0x3e, 0x8b, 0x75, 0xac, 0x3d,
    0xdf, 0xa6, 0x49, 0x3f, 0x12, 0x51, 0x38, 0x3f, 0xf0, 0xf9,
    0x1e, 0x3f, 0x71, 0x0b, 0x02, 0x3f, 0x15, 0x84, 0xf8, 0xbd,
    0x6f, 0x80, 0xc4, 0x3e, 0xe1, 0x4d, 0xe5, 0xbe, 0x2f, 0x02,
    0x92, 0x3f, 0xaa, 0x81, 0x81, 0x3e, 0x37, 0x20, 0x09, 0xbf,
    0xe3, 0x5b, 0x3c, 0xbe, 0x53, 0x33, 0x98, 0x3e, 0x00, 0x34,
    0xc0, 0x3d, 0x86, 0x0b, 0x1b, 0x3f, 0x36, 0xda, 0xdb, 0xbe,
    0x59, 0xfb, 0x39, 0x3f, 0xe1, 0x14, 0xa6, 0xbd, 0x59, 0xe5,
    0xce, 0x3e, 0xf8, 0x49, 0xac, 0x3e, 0x20, 0x40, 0x50, 0xbe,
    0x1b, 0x2a, 0xb7, 0x3e, 0x59, 0x2b, 0xbd, 0xbd, 0xa0, 0x82,
    0x8c, 0xbf, 0xab, 0xa4, 0x9b, 0xbe, 0xd6, 0x07, 0x26, 0x3e,
    0xc6, 0x00, 0x7b, 0x3e, 0x74, 0xc8, 0x2e, 0x3f, 0x93, 0x41,
    0x61, 0x3e, 0x62, 0x84, 0xc4, 0x3d, 0x6d, 0x61, 0xb9, 0xbd,
    0xe6, 0x6b, 0x8f, 0x3e, 0x47, 0xd2, 0xce, 0xbe, 0x68, 0x19,
    0xe4, 0xbe, 0x72, 0x32, 0xcd, 0x3c, 0x8e, 0x4c, 0x08, 0x3f,
    0x6a, 0xd2, 0x08, 0x3f, 0x0e, 0xa7, 0x42, 0x3e, 0x86, 0x8d,
    0x19, 0x3f, 0x3f, 0x23, 0x3e, 0xbe, 0xd1, 0x01, 0x68, 0x3e,
    0x34, 0xc9, 0xe1, 0x3e, 0x55, 0x5b, 0x0a, 0xbe, 0x5d, 0xd3,
    0xb4, 0x3d, 0xd6, 0x89, 0x15, 0xbe, 0x7b, 0x47, 0xe7, 0x3d,
    0x91, 0xf8, 0x93, 0xbc, 0xc8, 0x2b, 0x3a, 0x3f, 0xcb, 0x62,
    0x3a, 0xbf, 0x06, 0x7e, 0x9f, 0x3e, 0x71, 0x80, 0xe2, 0xbc,
    0xb2, 0xb8, 0x1e, 0x3d, 0xa7, 0x81, 0x57, 0x3e, 0x52, 0x18,
    0xe5, 0xbe, 0xe7, 0x73, 0xaa, 0x3e, 0xfd, 0xb6, 0x45, 0x3e,
    0xd1, 0xb9, 0x04, 0x3f, 0xa9, 0xaa, 0x02, 0x3e, 0xcd, 0x33,
    0x39, 0x3f, 0x96, 0x26, 0xde, 0xbe, 0xe0, 0xe8, 0x08, 0xbd,
    0x6f, 0xdb, 0xa8, 0xbe, 0xdd, 0x23, 0xf7, 0x3d, 0xbd, 0xe8,
    0x3d, 0x3e, 0x36, 0x60, 0xc6, 0x3e, 0x67, 0x10, 0x53, 0xbf,
    0x89, 0x79, 0x23, 0x3e, 0xb2, 0x24, 0xcf, 0xbc, 0x42, 0x33,
    0xf8, 0x3d, 0x99, 0x2a, 0x0e, 0x3f, 0x28, 0x65, 0xe2, 0xbd,
    0xfc, 0x0c, 0x2f, 0xbe, 0x07, 0xea, 0x08, 0xbf, 0xdc, 0xee,
    0xba, 0xbe, 0x45, 0x4c, 0xbc, 0xbe, 0x51, 0x98, 0x95, 0xbe,
    0x12, 0x1d, 0x04, 0xbe, 0x7b, 0xdc, 0xae, 0x3e, 0xaf, 0x37,
    0x7d, 0x3d, 0xd6, 0xb9, 0x62, 0x3e, 0xd5, 0x75, 0x63, 0x3f,
    0x06, 0x61, 0x16, 0xbf, 0x3f, 0x28, 0xf0, 0xbe, 0xa6, 0x1b,
    0x35, 0x3e, 0x75, 0x9c, 0xef, 0xbc, 0x18, 0x0f, 0x3b, 0xbe,
    0xbd, 0x28, 0x14, 0x3e, 0x40, 0x8a, 0x90, 0xbe, 0x89, 0xe5,
    0x4a, 0xbf, 0x24, 0xf0, 0xf3, 0xbe, 0xc0, 0x87, 0x55, 0xbe,
    0x5c, 0x52, 0xb8, 0x3e, 0xec, 0x66, 0xe8, 0x3e, 0x9a, 0xf8,
    0x03, 0x3f, 0x5a, 0x0c, 0x02, 0x3f, 0x75, 0x96, 0x8d, 0x3e,
    0x1b, 0xf5, 0xe3, 0x3e, 0x58, 0xf5, 0x92, 0x3e, 0x2f, 0xf6,
    0x33, 0x3f, 0xa2, 0xce, 0x49, 0xbc, 0xff, 0xba, 0x3b, 0x3e,
    0x46, 0xed, 0x7f, 0x3e, 0x78, 0x2f, 0x11, 0xbe, 0x64, 0x2f,
    0x14, 0x3e, 0xa2, 0x3c, 0x82, 0xbd, 0x5e, 0x2f, 0xda, 0x3e,
    0x63, 0x41, 0x53, 0x3e, 0xce, 0x55, 0xba, 0x3c, 0xeb, 0x6a,
    0x1f, 0x3e, 0xe7, 0x83, 0xc4, 0xbe, 0x65, 0xc5, 0xe1, 0xbe,
    0x7a, 0x4c, 0xfb, 0x3e, 0xea, 0x18, 0x58, 0x3f, 0x53, 0xa1,
    0x2d, 0x3f, 0x89, 0xaf, 0xec, 0x3f, 0x89, 0x09, 0x45, 0xbe,
    0xf7, 0xa6, 0x8b, 0x3d, 0xc9, 0x01, 0x43, 0x3f, 0x03, 0xfd,
    0x3d, 0xbf, 0x45, 0x59, 0xe7, 0x3f, 0x2c, 0xbc, 0xb3, 0x3f,
    0xb0, 0x32, 0x9c, 0x3d, 0xab, 0x5b, 0xb0, 0xbe, 0xd4, 0xd7,
    0x82, 0xbf, 0xd2, 0x73, 0xc3, 0x3d, 0xed, 0x32, 0x19, 0x3f,
    0x4b, 0x61, 0xb3, 0x3d, 0x62, 0x43, 0x3e, 0xbf, 0x28, 0xb3,
    0x8c, 0x3e, 0x57, 0xd9, 0x4b, 0xbf, 0xde, 0xc3, 0x9f, 0xbf,
    0x42, 0x7d, 0x96, 0xbf, 0xc1, 0x26, 0x98, 0x3f, 0xa1, 0x66,
    0xf2, 0xbe, 0xd2, 0xdb, 0xbc, 0x3f, 0xc2, 0xbf, 0xa5, 0xbd,
    0xbf, 0xe5, 0x14, 0x3f, 0x64, 0x29, 0x37, 0x3f, 0x16, 0x6e,
    0x33, 0xbf, 0x5b, 0x93, 0xa7, 0x3f, 0x87, 0x3e, 0x32, 0x3f,
    0x67, 0x11, 0xdf, 0x3f, 0xd1, 0x3f, 0x6a, 0xbf, 0xef, 0xd0,
    0xc9, 0xbd, 0xba, 0xbd, 0x2d, 0x3f, 0x95, 0x6c, 0xfc, 0x3f,
    0x2b, 0xe9, 0xb5, 0x3f, 0x83, 0xde, 0x85, 0x3f, 0x04, 0xf7,
    0x0a, 0x40, 0x3c, 0xfe, 0x67, 0x3e, 0xda, 0xa3, 0x04, 0xbf,
    0x9e, 0x15, 0xdd, 0x3f, 0xfa, 0x9b, 0xf2, 0xbe, 0x3f, 0xcb,
    0x92, 0x3e, 0xb2, 0x84, 0x3e, 0xbf, 0x88, 0xcb, 0x45, 0x3f,
    0x25, 0x9b, 0xc9, 0xbe, 0xdc, 0x84, 0x5d, 0x3f, 0x91, 0x6b,
    0xc6, 0x3e, 0x7c, 0x3d, 0xb2, 0xbf, 0xbe, 0x39, 0xf4, 0xbf,
    0x08, 0x4c, 0x8f, 0xbf, 0xaa, 0x2f, 0x95, 0xbf, 0x17, 0x7b,
    0x24, 0x3f, 0x14, 0xf3, 0x8e, 0xbe, 0x61, 0x3c, 0x24, 0x3f,
    0xf3, 0x27, 0x80, 0xbe, 0x50, 0xc0, 0x55, 0x3f, 0x91, 0xaf,
    0xe5, 0xbf, 0x17, 0xc3, 0x0b, 0x3f, 0xd2, 0x1f, 0x1b, 0xbd,
    0xb4, 0xc9, 0x95, 0xbf, 0xc8, 0x05, 0x78, 0x3f, 0xe5, 0xbe,
    0x04, 0xbf, 0x50, 0xbe, 0xcb, 0x3e, 0x41, 0x7c, 0x1d, 0xbe,
    0x62, 0x8c, 0xa6, 0x3f, 0xb0, 0x68, 0xbe, 0xbf, 0xbd, 0x39,
    0xad, 0x3f, 0xd8, 0xcc, 0x1a, 0xbe, 0xb3, 0xad, 0x17, 0x3f,
    0x96, 0xfa, 0x91, 0xbf, 0xec, 0xc5, 0xcb, 0xbf, 0x00, 0xd5,
    0x0b, 0xc0, 0xd4, 0x8b, 0x62, 0xbf, 0x5d, 0x0c, 0xb0, 0x3f,
    0x1f, 0x1e, 0x86, 0x3f, 0xe6, 0x62, 0x92, 0x3f, 0xce, 0xc0,
    0x95, 0xbf, 0xf1, 0xfc, 0x05, 0x3f, 0xd1, 0x06, 0x9c, 0x3f,
    0x18, 0xd3, 0x4c, 0x3f, 0x35, 0xbd, 0xdc, 0xbd, 0xee, 0x22,
    0x1e, 0xbf, 0xc7, 0x14, 0xc2, 0xbf, 0x02, 0x26, 0x8c, 0x3f,
    0xdd, 0x77, 0x2d, 0xbf, 0x93, 0x19, 0xd5, 0xbd, 0xa3, 0xa6,
    0x3d, 0xbf, 0x63, 0xc5, 0xeb, 0xbf, 0x78, 0x3b, 0x02, 0x40,
    0x16, 0x09, 0x51, 0x3f, 0x46, 0xf9, 0x81, 0x3e, 0x9e, 0x7c,
    0x93, 0x3f, 0xe3, 0xc8, 0xbc, 0xbe, 0x84, 0xc0, 0x38, 0xbf,
    0x06, 0x14, 0x79, 0x3e, 0x62, 0xb5, 0x91, 0x3f, 0x45, 0x46,
    0x01, 0xc0, 0xa4, 0xf4, 0xc7, 0x3f, 0x81, 0x94, 0x3b, 0x3f,
    0x5c, 0xc6, 0xc1, 0x3e, 0x20, 0x37, 0xea, 0x3e, 0x7a, 0x4d,
    0xf1, 0x3e, 0x6c, 0x68, 0x2b, 0x3f, 0x6a, 0x2e, 0xf5, 0x3e,
    0x4d, 0x1a, 0xb2, 0x3e, 0xa2, 0x54, 0x61, 0x3f, 0x75, 0x98,
    0xb1, 0x3e, 0xd1, 0xae, 0x9f, 0x3e, 0xb3, 0xb4, 0x51, 0x3e,
    0xd3, 0x21, 0x0f, 0xbe, 0xa3, 0x50, 0x54, 0xc0, 0xf3, 0x1c,
    0xd3, 0xbe, 0x29, 0x1e, 0x5e, 0xbf, 0x85, 0x93, 0x8f, 0xbf,
    0x05, 0xcc, 0xf6, 0x3e, 0x27, 0x27, 0x4f, 0xbf, 0x75, 0xec,
    0x80, 0x3e, 0x46, 0xc2, 0xf0, 0xbf, 0x25, 0x61, 0x05, 0x3f,
    0x73, 0x10, 0x59, 0x3e, 0xa0, 0xb5, 0x36, 0xc0, 0x8d, 0x43,
    0xb6, 0x3e, 0xfc, 0xc0, 0x50, 0xbf, 0x49, 0x41, 0xa0, 0xbe,
    0x90, 0x30, 0x0f, 0xbf, 0x1f, 0x9b, 0x35, 0x3e, 0xcd, 0x18,
    0xd8, 0xbe, 0x06, 0xd4, 0xe4, 0xbf, 0x69, 0xa9, 0x4d, 0x3e,
    0x42, 0xac, 0x01, 0x3f, 0x2e, 0x72, 0x8f, 0xbe, 0x5e, 0x48,
    0xaa, 0x3e, 0xd3, 0xb2, 0x1f, 0xc0, 0xac, 0x84, 0x19, 0xbf,
    0x08, 0x5d, 0x0b, 0xbf, 0x47, 0x57, 0x22, 0xc0, 0x66, 0xd5,
    0x1d, 0xc0, 0xb5, 0x0d, 0xc9, 0xbe, 0xad, 0x21, 0x8f, 0x3f,
    0x37, 0x5c, 0x9b, 0xbe, 0xe1, 0xe4, 0x81, 0x3b, 0x96, 0x16,
    0x8b, 0x3e, 0xda, 0xee, 0x00, 0x3e, 0x67, 0x7e, 0xe0, 0xbe,
    0xa1, 0x3a, 0xa9, 0xbf, 0x2a, 0x3a, 0x31, 0xbf, 0xa1, 0x30,
    0xe2, 0x3e, 0xa8, 0x1a, 0x94, 0x3d, 0xce, 0xc1, 0x9a, 0xbe,
    0xd1, 0x7b, 0xb8, 0x3e, 0xae, 0xb9, 0x93, 0xbf, 0x87, 0x08,
    0xcc, 0x3e, 0x0c, 0x45, 0xb8, 0xbe, 0x29, 0xce, 0x42, 0xc0,
    0xdd, 0xc5, 0x7e, 0xbf, 0xf4, 0x69, 0x6b, 0xc0, 0x0c, 0x56,
    0x03, 0xc0, 0x3b, 0x69, 0x4a, 0xbf, 0x7d, 0x8c, 0x4c, 0x3f,
    0x66, 0xcf, 0x89, 0xbc, 0x5f, 0xdf, 0x2e, 0xc0, 0x6c, 0x93,
    0xf7, 0x3c, 0xa9, 0xc2, 0x27, 0x3f, 0xaf, 0xde, 0xb4, 0x3d,
    0x2a, 0x83, 0xe2, 0xbf, 0x1b, 0x8c, 0x62, 0xbf, 0x04, 0xf8,
    0x9d, 0xbf, 0x0c, 0x47, 0x5a, 0x3e, 0x57, 0x1a, 0x27, 0xbe,
    0x70, 0x38, 0xea, 0x3d, 0x2a, 0x81, 0x11, 0xc0, 0x42, 0x2b,
    0x21, 0x3e, 0xc6, 0xa7, 0x29, 0x3f, 0xcf, 0x4a, 0x01, 0x3f,
    0x2f, 0x1b, 0x3e, 0xc0, 0x27, 0x6b, 0x37, 0xbf, 0x32, 0xf2,
    0x59, 0x3d, 0xd0, 0x87, 0x1b, 0xc0, 0x98, 0x8b, 0x16, 0xc0,
    0xa2, 0x98, 0xf8, 0x3e, 0x58, 0x11, 0x1a, 0xc0, 0x41, 0x16,
    0x0f, 0x3f, 0xd3, 0x38, 0x91, 0xbf, 0x8d, 0x7a, 0xec, 0xbf,
    0xad, 0xd8, 0x68, 0x3d, 0x22, 0xc3, 0x35, 0xc0, 0xae, 0x13,
    0x20, 0xbf, 0x50, 0xbf, 0xc3, 0xbf, 0xe7, 0x7f, 0x33, 0x3e,
    0x20, 0xe7, 0x0d, 0xbf, 0xdb, 0x59, 0x06, 0xbf, 0x74, 0xe8,
    0x0e, 0xbe, 0x72, 0x7e, 0x39, 0x3f, 0x44, 0xad, 0xef, 0x3e,
    0xc5, 0x4b, 0xbb, 0xbf, 0xc7, 0x4a, 0xa3, 0xbf, 0xb6, 0xde,
    0x2d, 0xbf, 0x96, 0x0d, 0x1c, 0x3d, 0xaa, 0x78, 0xb9, 0xbf,
    0x21, 0xcb, 0x58, 0xbf, 0x64, 0x85, 0x07, 0xbe, 0xd9, 0x00,
    0x35, 0xbf, 0xcd, 0xad, 0x79, 0x3f, 0x79, 0x0c, 0xaa, 0x3e,
    0xf5, 0xcc, 0xe9, 0xbe, 0xe2, 0x61, 0x38, 0xbe, 0xca, 0xb9,
    0x07, 0xc0, 0x00, 0x5c, 0xdb, 0xbf, 0xf6, 0x82, 0xce, 0xbf,
    0x15, 0x67, 0x82, 0x3e, 0x6b, 0xfc, 0x3a, 0xc0, 0x77, 0x21,
    0xc3, 0x3e, 0xc8, 0x70, 0x87, 0xbf, 0x81, 0x3b, 0x89, 0x3b,
    0x10, 0xa3, 0x22, 0xbf, 0xd3, 0xb4, 0x88, 0xbf, 0x44, 0xf6,
    0x6a, 0x3e, 0x65, 0xa5, 0x83, 0xbe, 0x86, 0x98, 0x48, 0x3e,
    0x62, 0x24, 0x41, 0x3f, 0x97, 0x4a, 0x03, 0xc0, 0x38, 0x08,
    0x77, 0x3f, 0x8a, 0x83, 0xfc, 0xbe, 0x1f, 0x72, 0x38, 0xc0,
    0x6f, 0xb7, 0x6d, 0xc0, 0x9f, 0xf0, 0xd3, 0xbf, 0x65, 0x4d,
    0x3f, 0xbf, 0xfa, 0x52, 0x53, 0xbf, 0x36, 0x14, 0x18, 0xbe,
    0xaf, 0xcb, 0x10, 0xc0, 0x72, 0x6b, 0xf1, 0xbf, 0x9e, 0xa4,
    0x14, 0xbd, 0xf6, 0x6e, 0x28, 0xbf, 0xcd, 0x6c, 0x8e, 0xbf,
    0xe5, 0x83, 0x26, 0x3e, 0x26, 0x31, 0xfd, 0xbf, 0xb2, 0x3f,
    0x36, 0x3f, 0xa0, 0xd5, 0x04, 0xbe, 0xfd, 0x23, 0xb7, 0xbd,
    0xdc, 0x53, 0xd0, 0xbf, 0xeb, 0x43, 0xb9, 0x3e, 0xf8, 0x7a,
    0x8a, 0xbd, 0xb3, 0x3e, 0x21, 0xbf, 0x15, 0x86, 0x76, 0xbf,
    0x2f, 0xd0, 0x48, 0x3e, 0x33, 0x33, 0x65, 0xc0, 0x1c, 0x97,
    0x14, 0x3f, 0x28, 0x54, 0x2c, 0xbf, 0x39, 0xfd, 0x0a, 0x3f,
    0x2b, 0xc8, 0x6c, 0xbf, 0xf9, 0x77, 0x9b, 0xbc, 0x74, 0x95,
    0x57, 0xbf, 0x55, 0x25, 0xb2, 0x3d, 0xba, 0x8e, 0x91, 0xbe,
    0x8d, 0x82, 0x08, 0xbf, 0x31, 0x6b, 0x3d, 0x3f, 0x1a, 0xd8,
    0x9b, 0x3e, 0xc5, 0x65, 0xf0, 0x3e, 0x61, 0x34, 0xa9, 0xbc,
    0xc4, 0x67, 0x7e, 0xbf, 0x19, 0xe2, 0xba, 0x3f, 0xd5, 0x73,
    0xb6, 0xbf, 0xa2, 0x8d, 0x6e, 0x3e, 0x8f, 0xd9, 0x1b, 0x3e,
    0xd0, 0x40, 0x31, 0xbf, 0x70, 0xa4, 0x5a, 0xbf, 0x6d, 0x03,
    0x07, 0x3f, 0xee, 0xfa, 0xd2, 0xbf, 0x1e, 0x56, 0x02, 0xbf,
    0xff, 0x90, 0xa7, 0x3e, 0x42, 0x92, 0xda, 0xbf, 0x86, 0xd4,
    0x8a, 0xbe, 0xd6, 0x1b, 0x18, 0x3f, 0xba, 0x8b, 0x08, 0xc0,
    0x15, 0xc6, 0xc8, 0xbf, 0xac, 0x63, 0xc0, 0xbf, 0x8c, 0x4d,
    0x43, 0x3e, 0x7a, 0xa9, 0xb1, 0xbf, 0x1d, 0x8f, 0x3a, 0xbf,
    0x52, 0x7c, 0xa6, 0xbe, 0x42, 0x5e, 0xb4, 0x3d, 0xd4, 0x44,
    0xdf, 0xbe, 0xfc, 0x84, 0x02, 0xbf, 0x06, 0x35, 0x0f, 0x3f,
    0x1e, 0x1a, 0x51, 0x3e, 0x8a, 0x17, 0x76, 0x3f, 0x2c, 0x59,
    0xca, 0x3d, 0xff, 0x5e, 0x7a, 0xbd, 0x96, 0x4c, 0x31, 0x3e,
    0x0d, 0xcd, 0xa8, 0x3d, 0x59, 0xc0, 0x9a, 0x3f, 0x73, 0x98,
    0x28, 0x3f, 0xdc, 0x90, 0x9d, 0xbe, 0xf2, 0x4b, 0x57, 0x3e,
    0x2b, 0x96, 0xa5, 0x3e, 0x23, 0x8b, 0xb9, 0x3e, 0x38, 0x63,
    0x89, 0xbe, 0xc4, 0xdf, 0x5c, 0xbd, 0x26, 0x41, 0x08, 0xc0,
    0x69, 0xee, 0x75, 0xbe, 0x21, 0x22, 0xa6, 0x3e, 0x14, 0x8a,
    0x3d, 0xbf, 0xdb, 0x74, 0x07, 0x3f, 0xe4, 0x3d, 0x8f, 0xbe,
    0x98, 0xaf, 0x89, 0x3e, 0x10, 0xf4, 0xee, 0xbe, 0xf3, 0xd5,
    0x8c, 0xbf, 0x87, 0x08, 0xea, 0xbc, 0x7a, 0x75, 0xb1, 0x3e,
    0x8a, 0x0e, 0x8c, 0xbe, 0x3e, 0xc4, 0xba, 0xbb, 0xa2, 0x1f,
    0x41, 0x3b, 0x80, 0x7a, 0x90, 0xbf, 0x33, 0x9d, 0x0e, 0x3e,
    0xfa, 0xd2, 0x42, 0xbd, 0x6c, 0x6e, 0xa2, 0xbf, 0xb2, 0x1c,
    0x1b, 0x3f, 0xa9, 0x7e, 0x70, 0x3e, 0xd4, 0xf3, 0xdd, 0xbe,
    0xb7, 0x6c, 0x2d, 0x3e, 0x5d, 0xda, 0x2f, 0xbe, 0x99, 0xfd,
    0xb5, 0xbf, 0xd6, 0xee, 0x0b, 0xbf, 0x2c, 0x08, 0x64, 0x3e,
    0x61, 0x5e, 0xcb, 0xbe, 0x11, 0x95, 0x59, 0xc0, 0x8b, 0x35,
    0xe4, 0x3e, 0xdd, 0xd6, 0x35, 0x3f, 0xd5, 0x52, 0x39, 0x3d,
    0xbc, 0x4e, 0x9e, 0xbf, 0xf2, 0x9d, 0x8b, 0xbf, 0x18, 0x49,
    0x05, 0xbf, 0x6a, 0xbd, 0x26, 0xbf, 0x97, 0x8f, 0x3a, 0xbf,
    0xf3, 0xa2, 0x1c, 0xbe, 0xa9, 0x40, 0x16, 0xc0, 0xc6, 0xd4,
    0xa8, 0x3e, 0xa5, 0xcb, 0x91, 0x3f, 0x87, 0xcd, 0xf9, 0xbd,
    0x9e, 0x08, 0x31, 0xbe, 0xf3, 0x42, 0x15, 0xbe, 0x42, 0x7d,
    0x51, 0xbc, 0x7d, 0x81, 0xa6, 0xbd, 0xae, 0xc1, 0xc1, 0x3e,
    0xe8, 0x43, 0x0f, 0x3f, 0xfa, 0xc0, 0x49, 0x3f, 0xe1, 0x1c,
    0x9e, 0xbe, 0x17, 0xa1, 0x81, 0xbe, 0xef, 0x4e, 0xc6, 0xbe,
    0xdb, 0xda, 0xcc, 0xbc, 0x6d, 0xfc, 0xef, 0xbf, 0x75, 0xa2,
    0x42, 0x3d, 0xf8, 0xfd, 0xfd, 0x3e, 0x69, 0x5e, 0xf2, 0x3e,
    0x52, 0x13, 0x8e, 0xbf, 0x49, 0x6a, 0x9f, 0xbe, 0x16, 0x8b,
    0xbb, 0x3c, 0x47, 0x1d, 0x59, 0xbf, 0xf3, 0x22, 0xa9, 0xbf,
    0xb8, 0xab, 0x3e, 0xbe, 0xd1, 0x5c, 0x19, 0xc0, 0x3d, 0x77,
    0x48, 0xbf, 0xfd, 0x3c, 0xf4, 0x3e, 0x43, 0xb3, 0x34, 0xbf,
    0x2c, 0x5e, 0x87, 0xbf, 0xb9, 0xbe, 0x49, 0xc0, 0x6d, 0xb9,
    0x63, 0x3e, 0xce, 0xaa, 0x3b, 0xbf, 0x35, 0xdd, 0x3b, 0x3f,
    0x63, 0x01, 0x0b, 0xbe, 0xde, 0xc3, 0x03, 0x3f, 0xcf, 0x36,
    0xb5, 0x3d, 0x1a, 0xc0, 0x68, 0xbc, 0x5a, 0xcb, 0x66, 0x3d,
    0x43, 0x2f, 0x98, 0x3e, 0x93, 0x55, 0xb8, 0x3e, 0xe7, 0xdd,
    0xa1, 0xbd, 0x54, 0x3c, 0x37, 0x3e, 0x32, 0xda, 0x42, 0x3e,
    0xbf, 0x7b, 0xb0, 0x3c, 0x3d, 0xf0, 0xb0, 0x3d, 0x6e, 0xfd,
    0xc5, 0xbe, 0x17, 0x90, 0x90, 0xbe, 0x01, 0xd4, 0x18,
    0xbe, 0xbf, 0xb4, 0x4e, 0xbe, 0x87, 0x3c, 0x81, 0xbb,
    0xbf, 0x65, 0x97, 0xbd, 0xf2, 0x79, 0xee, 0x3e, 0x48,
    0x42, 0x32, 0x3d, 0x16, 0xa3, 0xd4, 0xbe, 0x5c, 0x18,
    0xcd, 0xbe, 0xa9, 0xbe, 0x91, 0xbe, 0x64, 0xb1, 0x98,
    0x3d, 0xb2, 0xbb, 0x87, 0x3e, 0x9d, 0x74, 0xb0, 0xbe
  };

  return AI_HANDLE_PTR(s_grunet_weights);
}

